/* Copyright 2020 The TensorFlow Authors. All Rights Reserved.

Licensed under the Apache License, Version 2.0 (the "License");
you may not use this file except in compliance with the License.
You may obtain a copy of the License at

    http://www.apache.org/licenses/LICENSE-2.0

Unless required by applicable law or agreed to in writing, software
distributed under the License is distributed on an "AS IS" BASIS,
WITHOUT WARRANTIES OR CONDITIONS OF ANY KIND, either express or implied.
See the License for the specific language governing permissions and
limitations under the License.
==============================================================================*/

// Automatically created from a TensorFlow Lite flatbuffer using the command:
// xxd -i model.tflite > model.cc

// This is a standard TensorFlow Lite model file that has been converted into a
// C data array, so it can be easily compiled into a binary for devices that
// don't have a file system.

// See train/README.md for a full description of the creation process.

#include "model.h"

alignas(8) const unsigned char g_model[] = {
    0x1c, 0x00, 0x00, 0x00, 0x54, 0x46, 0x4c, 0x33, 0x14, 0x00, 0x20, 0x00, 0x04, 0x00, 0x08, 0x00, 0x0c, 0x00, 0x10, 0x00, 0x14, 0x00, 0x00, 0x00, 0x18, 0x00, 0x1c, 0x00, 0x14, 0x00, 0x00, 0x00, 0x03, 0x00, 0x00, 0x00, 0x18, 0x00, 0x00, 0x00, 0x2c, 0x00, 0x00, 0x00, 0xd8, 0x00, 0x00, 0x00, 0x2c, 0x00, 0x00, 0x00, 0x80, 0x00, 0x00, 0x00, 0x78, 0x00, 0x00, 0x00, 0x05, 0x00, 0x00, 0x00, 0x58, 0x07, 0x00, 0x00, 0x70, 0x06, 0x00, 0x00, 0xc8, 0x03, 0x00, 0x00, 0xf0, 0x02, 0x00, 0x00, 0xac, 0x01, 0x00, 0x00, 0x01, 0x00, 0x00, 0x00, 0xd0, 0x00, 0x00, 0x00, 0x14, 0x00, 0x00, 0x00, 0x34, 0x13, 0x00, 0x00, 0x30, 0x13, 0x00, 0x00, 0x38, 0x12, 0x00, 0x00, 0xb0, 0x11, 0x00, 0x00, 0x04, 0x11, 0x00, 0x00, 0x8c, 0x10, 0x00, 0x00, 0x1c, 0x10, 0x00, 0x00, 0xc4, 0x0c, 0x00, 0x00, 0xac, 0x0b, 0x00, 0x00, 0xbc, 0x0a, 0x00, 0x00, 0x1c, 0x08, 0x00, 0x00, 0x08, 0x13, 0x00, 0x00, 0x04, 0x13, 0x00, 0x00, 0x00, 0x13, 0x00, 0x00, 0xfc, 0x12, 0x00, 0x00, 0xf8, 0x12, 0x00, 0x00, 0xf4, 0x12, 0x00, 0x00, 0xf0, 0x12, 0x00, 0x00, 0xec, 0x12, 0x00, 0x00, 0x3c, 0x00, 0x00, 0x00, 0x00, 0x00, 0x00, 0x00, 0x01, 0x00, 0x00, 0x00, 0x0c, 0x00, 0x00, 0x00, 0x08, 0x00, 0x0c, 0x00, 0x04, 0x00, 0x08, 0x00, 0x08, 0x00, 0x00, 0x00, 0x08, 0x00, 0x00, 0x00, 0x13, 0x00, 0x00, 0x00, 0x13, 0x00, 0x00, 0x00, 0x6d, 0x69, 0x6e, 0x5f, 0x72, 0x75, 0x6e, 0x74, 0x69, 0x6d, 0x65, 0x5f, 0x76, 0x65, 0x72, 0x73, 0x69, 0x6f, 0x6e, 0x00, 0x4e, 0xee, 0xff, 0xff, 0x04, 0x00, 0x00, 0x00, 0x10, 0x00, 0x00, 0x00, 0x31, 0x2e, 0x35, 0x2e, 0x30, 0x00, 0x00, 0x00, 0x00, 0x00, 0x00, 0x00, 0x00, 0x00, 0x00, 0x00, 0x0f, 0x00, 0x00, 0x00, 0x4d, 0x4c, 0x49, 0x52, 0x20, 0x43, 0x6f, 0x6e, 0x76, 0x65, 0x72, 0x74, 0x65, 0x64, 0x2e, 0x00, 0x00, 0x00, 0x0e, 0x00, 0x18, 0x00, 0x04, 0x00, 0x08, 0x00, 0x0c, 0x00, 0x10, 0x00, 0x14, 0x00, 0x0e, 0x00, 0x00, 0x00, 0x14, 0x00, 0x00, 0x00, 0x5c, 0x00, 0x00, 0x00, 0x60, 0x00, 0x00, 0x00, 0x64, 0x00, 0x00, 0x00, 0x84, 0x00, 0x00, 0x00, 0x12, 0x00, 0x00, 0x00, 0xf8, 0x11, 0x00, 0x00, 0x84, 0x11, 0x00, 0x00, 0xec, 0x10, 0x00, 0x00, 0x70, 0x10, 0x00, 0x00, 0xc4, 0x0f, 0x00, 0x00, 0x60, 0x0f, 0x00, 0x00, 0xf0, 0x0e, 0x00, 0x00, 0x98, 0x0b, 0x00, 0x00, 0x78, 0x0a, 0x00, 0x00, 0x88, 0x09, 0x00, 0x00, 0x3c, 0x06, 0x00, 0x00, 0x54, 0x05, 0x00, 0x00, 0x04, 0x04, 0x00, 0x00, 0x54, 0x03, 0x00, 0x00, 0xa4, 0x02, 0x00, 0x00, 0xcc, 0x01, 0x00, 0x00, 0x00, 0x01, 0x00, 0x00, 0x84, 0x00, 0x00, 0x00, 0x01, 0x00, 0x00, 0x00, 0x00, 0x00, 0x00, 0x00, 0x01, 0x00, 0x00, 0x00, 0x11, 0x00, 0x00, 0x00, 0x08, 0x00, 0x00, 0x00, 0xa4, 0x05, 0x00, 0x00, 0xc0, 0x04, 0x00, 0x00, 0x94, 0x03, 0x00, 0x00, 0xe0, 0x02, 0x00, 0x00, 0x3c, 0x02, 0x00, 0x00, 0x48, 0x01, 0x00, 0x00, 0x98, 0x00, 0x00, 0x00, 0x10, 0x00, 0x00, 0x00, 0x04, 0x00, 0x00, 0x00, 0x6d, 0x61, 0x69, 0x6e, 0x00, 0x00, 0x00, 0x00, 0x4e, 0xfd, 0xff, 0xff, 0x00, 0x00, 0x00, 0x09, 0x04, 0x00, 0x00, 0x00, 0x1c, 0x00, 0x00, 0x00, 0x10, 0x00, 0x00, 0x00, 0x04, 0x00, 0x00, 0x00, 0x4a, 0xef, 0xff, 0xff, 0x00, 0x00, 0x80, 0x3f, 0x01, 0x00, 0x00, 0x00, 0x11, 0x00, 0x00, 0x00, 0x01, 0x00, 0x00, 0x00, 0x10, 0x00, 0x00, 0x00, 0x70, 0xfa, 0xff, 0xff, 0x19, 0x00, 0x00, 0x00, 0x00, 0x00, 0x00, 0x19, 0x01, 0x00, 0x00, 0x00, 0xe4, 0xee, 0xff, 0xff, 0x14, 0x00, 0x00, 0x00, 0x12, 0x00, 0x00, 0x00, 0x24, 0x00, 0x00, 0x00, 0x30, 0x00, 0x00, 0x00, 0x10, 0x00, 0x00, 0x00, 0x02, 0x00, 0x00, 0x00, 0x01, 0x00, 0x00, 0x00, 0x03, 0x00, 0x00, 0x00, 0x02, 0x00, 0x00, 0x00, 0xff, 0xff, 0xff, 0xff, 0x03, 0x00, 0x00, 0x00, 0x08, 0x00, 0x00, 0x00, 0x49, 0x64, 0x65, 0x6e, 0x74, 0x69, 0x74, 0x79, 0x00, 0x00, 0x00, 0x00, 0xbc, 0xee, 0xff, 0xff, 0xd2, 0xfd, 0xff, 0xff, 0x00, 0x00, 0x00, 0x08, 0x03, 0x00, 0x00, 0x00, 0x18, 0x00, 0x00, 0x00, 0x0c, 0x00, 0x00, 0x00, 0x04, 0x00, 0x00, 0x00, 0xd8, 0xee, 0xff, 0xff, 0x01, 0x00, 0x00, 0x00, 0x10, 0x00, 0x00, 0x00, 0x03, 0x00, 0x00, 0x00, 0x0f, 0x00, 0x00, 0x00, 0x07, 0x00, 0x00, 0x00, 0x04, 0x00, 0x00, 0x00, 0x5c, 0xef, 0xff, 0xff, 0x14, 0x00, 0x00, 0x00, 0x11, 0x00, 0x00, 0x00, 0x24, 0x00, 0x00, 0x00, 0x64, 0x00, 0x00, 0x00, 0x10, 0x00, 0x00, 0x00, 0x02, 0x00, 0x00, 0x00, 0x01, 0x00, 0x00, 0x00, 0x03, 0x00, 0x00, 0x00, 0x02, 0x00, 0x00, 0x00, 0xff, 0xff, 0xff, 0xff, 0x03, 0x00, 0x00, 0x00, 0x3c, 0x00, 0x00, 0x00, 0x73, 0x65, 0x71, 0x75, 0x65, 0x6e, 0x74, 0x69, 0x61, 0x6c, 0x5f, 0x33, 0x39, 0x2f, 0x64, 0x65, 0x6e, 0x73, 0x65, 0x5f, 0x37, 0x39, 0x2f, 0x4d, 0x61, 0x74, 0x4d, 0x75, 0x6c, 0x3b, 0x73, 0x65, 0x71, 0x75, 0x65, 0x6e, 0x74, 0x69, 0x61, 0x6c, 0x5f, 0x33, 0x39, 0x2f, 0x64, 0x65, 0x6e, 0x73, 0x65, 0x5f, 0x37, 0x39, 0x2f, 0x42, 0x69, 0x61, 0x73, 0x41, 0x64, 0x64, 0x00, 0x00, 0x00, 0x00, 0x68, 0xef, 0xff, 0xff, 0xa6, 0xfc, 0xff, 0xff, 0x00, 0x00, 0x00, 0x08, 0x03, 0x00, 0x00, 0x00, 0x24, 0x00, 0x00, 0x00, 0x18, 0x00, 0x00, 0x00, 0x0c, 0x00, 0x00, 0x00, 0x00, 0x00, 0x06, 0x00, 0x08, 0x00, 0x07, 0x00, 0x06, 0x00, 0x00, 0x00, 0x00, 0x00, 0x00, 0x01, 0x01, 0x00, 0x00, 0x00, 0x0f, 0x00, 0x00, 0x00, 0x03, 0x00, 0x00, 0x00, 0x0e, 0x00, 0x00, 0x00, 0x06, 0x00, 0x00, 0x00, 0x03, 0x00, 0x00, 0x00, 0xb0, 0xfb, 0xff, 0xff, 0x09, 0x00, 0x00, 0x00, 0x00, 0x00, 0x00, 0x09, 0x01, 0x00, 0x00, 0x00, 0x24, 0xf0, 0xff, 0xff, 0x14, 0x00, 0x00, 0x00, 0x10, 0x00, 0x00, 0x00, 0x24, 0x00, 0x00, 0x00, 0x80, 0x00, 0x00, 0x00, 0x10, 0x00, 0x00, 0x00, 0x02, 0x00, 0x00, 0x00, 0x01, 0x00, 0x00, 0x00, 0x10, 0x00, 0x00, 0x00, 0x02, 0x00, 0x00, 0x00, 0xff, 0xff, 0xff, 0xff, 0x10, 0x00, 0x00, 0x00, 0x58, 0x00, 0x00, 0x00, 0x73, 0x65, 0x71, 0x75, 0x65, 0x6e, 0x74, 0x69, 0x61, 0x6c, 0x5f, 0x33, 0x39, 0x2f, 0x64, 0x65, 0x6e, 0x73, 0x65, 0x5f, 0x37, 0x38, 0x2f, 0x4d, 0x61, 0x74, 0x4d, 0x75, 0x6c, 0x3b, 0x73, 0x65, 0x71, 0x75, 0x65, 0x6e, 0x74, 0x69, 0x61, 0x6c, 0x5f, 0x33, 0x39, 0x2f, 0x64, 0x65, 0x6e, 0x73, 0x65, 0x5f, 0x37, 0x38, 0x2f, 0x52, 0x65, 0x6c, 0x75, 0x3b, 0x73, 0x65, 0x71, 0x75, 0x65, 0x6e, 0x74, 0x69, 0x61, 0x6c, 0x5f, 0x33, 0x39, 0x2f, 0x64, 0x65, 0x6e, 0x73, 0x65, 0x5f, 0x37, 0x38, 0x2f, 0x42, 0x69, 0x61, 0x73, 0x41, 0x64, 0x64, 0x00, 0x00, 0x00, 0x00, 0x4c, 0xf1, 0xff, 0xff, 0x00, 0x00, 0x0a, 0x00, 0x10, 0x00, 0x04, 0x00, 0x08, 0x00, 0x0c, 0x00, 0x0a, 0x00, 0x00, 0x00, 0x02, 0x00, 0x00, 0x00, 0x10, 0x00, 0x00, 0x00, 0x04, 0x00, 0x00, 0x00, 0x01, 0x00, 0x00, 0x00, 0x0e, 0x00, 0x00, 0x00, 0x02, 0x00, 0x00, 0x00, 0x0d, 0x00, 0x00, 0x00, 0x05, 0x00, 0x00, 0x00, 0x84, 0xfc, 0xff, 0xff, 0x16, 0x00, 0x00, 0x00, 0x00, 0x00, 0x00, 0x16, 0x01, 0x00, 0x00, 0x00, 0xf8, 0xf0, 0xff, 0xff, 0x14, 0x00, 0x00, 0x00, 0x0f, 0x00, 0x00, 0x00, 0x24, 0x00, 0x00, 0x00, 0x48, 0x00, 0x00, 0x00, 0x10, 0x00, 0x00, 0x00, 0x02, 0x00, 0x00, 0x00, 0x01, 0x00, 0x00, 0x00, 0x0c, 0x00, 0x00, 0x00, 0x02, 0x00, 0x00, 0x00, 0xff, 0xff, 0xff, 0xff, 0x0c, 0x00, 0x00, 0x00, 0x20, 0x00, 0x00, 0x00, 0x73, 0x65, 0x71, 0x75, 0x65, 0x6e, 0x74, 0x69, 0x61, 0x6c, 0x5f, 0x33, 0x39, 0x2f, 0x66, 0x6c, 0x61, 0x74, 0x74, 0x65, 0x6e, 0x5f, 0x33, 0x39, 0x2f, 0x52, 0x65, 0x73, 0x68, 0x61, 0x70, 0x65, 0x00, 0x00, 0x00, 0x00, 0xe8, 0xf1, 0xff, 0xff, 0x00, 0x00, 0x0e, 0x00, 0x18, 0x00, 0x08, 0x00, 0x0c, 0x00, 0x10, 0x00, 0x07, 0x00, 0x14, 0x00, 0x0e, 0x00, 0x00, 0x00, 0x00, 0x00, 0x00, 0x05, 0x01, 0x00, 0x00, 0x00, 0x2c, 0x00, 0x00, 0x00, 0x20, 0x00, 0x00, 0x00, 0x04, 0x00, 0x00, 0x00, 0x26, 0xfe, 0xff, 0xff, 0x05, 0x00, 0x00, 0x00, 0x05, 0x00, 0x00, 0x00, 0x05, 0x00, 0x00, 0x00, 0x05, 0x00, 0x00, 0x00, 0x00, 0x00, 0x00, 0x01, 0x01, 0x00, 0x00, 0x00, 0x0d, 0x00, 0x00, 0x00, 0x01, 0x00, 0x00, 0x00, 0x0c, 0x00, 0x00, 0x00, 0xa4, 0xf1, 0xff, 0xff, 0x14, 0x00, 0x00, 0x00, 0x0e, 0x00, 0x00, 0x00, 0x34, 0x00, 0x00, 0x00, 0x5c, 0x00, 0x00, 0x00, 0x18, 0x00, 0x00, 0x00, 0x04, 0x00, 0x00, 0x00, 0x01, 0x00, 0x00, 0x00, 0x03, 0x00, 0x00, 0x00, 0x01, 0x00, 0x00, 0x00, 0x04, 0x00, 0x00, 0x00, 0x04, 0x00, 0x00, 0x00, 0xff, 0xff, 0xff, 0xff, 0x03, 0x00, 0x00, 0x00, 0x01, 0x00, 0x00, 0x00, 0x04, 0x00, 0x00, 0x00, 0x26, 0x00, 0x00, 0x00, 0x73, 0x65, 0x71, 0x75, 0x65, 0x6e, 0x74, 0x69, 0x61, 0x6c, 0x5f, 0x33, 0x39, 0x2f, 0x6d, 0x61, 0x78, 0x5f, 0x70, 0x6f, 0x6f, 0x6c, 0x69, 0x6e, 0x67, 0x32, 0x64, 0x5f, 0x37, 0x39, 0x2f, 0x4d, 0x61, 0x78, 0x50, 0x6f, 0x6f, 0x6c, 0x00, 0x00, 0xa8, 0xf1, 0xff, 0xff, 0x06, 0xfe, 0xff, 0xff, 0x00, 0x00, 0x00, 0x01, 0x24, 0x00, 0x00, 0x00, 0x18, 0x00, 0x00, 0x00, 0x04, 0x00, 0x00, 0x00, 0xf8, 0xfd, 0xff, 0xff, 0x01, 0x00, 0x00, 0x00, 0x01, 0x00, 0x00, 0x00, 0x00, 0x00, 0x00, 0x01, 0x01, 0x00, 0x00, 0x00, 0x0c, 0x00, 0x00, 0x00, 0x03, 0x00, 0x00, 0x00, 0x0b, 0x00, 0x00, 0x00, 0x09, 0x00, 0x00, 0x00, 0x02, 0x00, 0x00, 0x00, 0x50, 0xf2, 0xff, 0xff, 0x14, 0x00, 0x00, 0x00, 0x0d, 0x00, 0x00, 0x00, 0x34, 0x00, 0x00, 0x00, 0xc8, 0x00, 0x00, 0x00, 0x18, 0x00, 0x00, 0x00, 0x04, 0x00, 0x00, 0x00, 0x01, 0x00, 0x00, 0x00, 0x13, 0x00, 0x00, 0x00, 0x06, 0x00, 0x00, 0x00, 0x04, 0x00, 0x00, 0x00, 0x04, 0x00, 0x00, 0x00, 0xff, 0xff, 0xff, 0xff, 0x13, 0x00, 0x00, 0x00, 0x06, 0x00, 0x00, 0x00, 0x04, 0x00, 0x00, 0x00, 0x93, 0x00, 0x00, 0x00, 0x73, 0x65, 0x71, 0x75, 0x65, 0x6e, 0x74, 0x69, 0x61, 0x6c, 0x5f, 0x33, 0x39, 0x2f, 0x63, 0x6f, 0x6e, 0x76, 0x32, 0x64, 0x5f, 0x37, 0x39, 0x2f, 0x52, 0x65, 0x6c, 0x75, 0x3b, 0x73, 0x65, 0x71, 0x75, 0x65, 0x6e, 0x74, 0x69, 0x61, 0x6c, 0x5f, 0x33, 0x39, 0x2f, 0x63, 0x6f, 0x6e, 0x76, 0x32, 0x64, 0x5f, 0x37, 0x39, 0x2f, 0x42, 0x69, 0x61, 0x73, 0x41, 0x64, 0x64, 0x3b, 0x73, 0x65, 0x71, 0x75, 0x65, 0x6e, 0x74, 0x69, 0x61, 0x6c, 0x5f, 0x33, 0x39, 0x2f, 0x63, 0x6f, 0x6e, 0x76, 0x32, 0x64, 0x5f, 0x37, 0x39, 0x2f, 0x43, 0x6f, 0x6e, 0x76, 0x32, 0x44, 0x3b, 0x73, 0x65, 0x71, 0x75, 0x65, 0x6e, 0x74, 0x69, 0x61, 0x6c, 0x5f, 0x33, 0x39, 0x2f, 0x63, 0x6f, 0x6e, 0x76, 0x32, 0x64, 0x5f, 0x37, 0x39, 0x2f, 0x42, 0x69, 0x61, 0x73, 0x41, 0x64, 0x64, 0x2f, 0x52, 0x65, 0x61, 0x64, 0x56, 0x61, 0x72, 0x69, 0x61, 0x62, 0x6c, 0x65, 0x4f, 0x70, 0x2f, 0x72, 0x65, 0x73, 0x6f, 0x75, 0x72, 0x63, 0x65, 0x00, 0xc0, 0xf3, 0xff, 0xff, 0x00, 0x00, 0x0e, 0x00, 0x1a, 0x00, 0x08, 0x00, 0x0c, 0x00, 0x10, 0x00, 0x07, 0x00, 0x14, 0x00, 0x0e, 0x00, 0x00, 0x00, 0x00, 0x00, 0x00, 0x05, 0x01, 0x00, 0x00, 0x00, 0x3c, 0x00, 0x00, 0x00, 0x30, 0x00, 0x00, 0x00, 0x14, 0x00, 0x00, 0x00, 0x00, 0x00, 0x0e, 0x00, 0x18, 0x00, 0x17, 0x00, 0x10, 0x00, 0x0c, 0x00, 0x08, 0x00, 0x04, 0x00, 0x0e, 0x00, 0x00, 0x00, 0x05, 0x00, 0x00, 0x00, 0x05, 0x00, 0x00, 0x00, 0x05, 0x00, 0x00, 0x00, 0x05, 0x00, 0x00, 0x00, 0x00, 0x00, 0x00, 0x01, 0x01, 0x00, 0x00, 0x00, 0x0b, 0x00, 0x00, 0x00, 0x01, 0x00, 0x00, 0x00, 0x0a, 0x00, 0x00, 0x00, 0x28, 0xff, 0xff, 0xff, 0x11, 0x00, 0x00, 0x00, 0x00, 0x00, 0x00, 0x11, 0x01, 0x00, 0x00, 0x00, 0x9c, 0xf3, 0xff, 0xff, 0x14, 0x00, 0x00, 0x00, 0x0c, 0x00, 0x00, 0x00, 0x34, 0x00, 0x00, 0x00, 0x5c, 0x00, 0x00, 0x00, 0x18, 0x00, 0x00, 0x00, 0x04, 0x00, 0x00, 0x00, 0x01, 0x00, 0x00, 0x00, 0x13, 0x00, 0x00, 0x00, 0x06, 0x00, 0x00, 0x00, 0x04, 0x00, 0x00, 0x00, 0x04, 0x00, 0x00, 0x00, 0xff, 0xff, 0xff, 0xff, 0x13, 0x00, 0x00, 0x00, 0x06, 0x00, 0x00, 0x00, 0x04, 0x00, 0x00, 0x00, 0x26, 0x00, 0x00, 0x00, 0x73, 0x65, 0x71, 0x75, 0x65, 0x6e, 0x74, 0x69, 0x61, 0x6c, 0x5f, 0x33, 0x39, 0x2f, 0x6d, 0x61, 0x78, 0x5f, 0x70, 0x6f, 0x6f, 0x6c, 0x69, 0x6e, 0x67, 0x32, 0x64, 0x5f, 0x37, 0x38, 0x2f, 0x4d, 0x61, 0x78, 0x50, 0x6f, 0x6f, 0x6c, 0x00, 0x00, 0xa0, 0xf4, 0xff, 0xff, 0x00, 0x00, 0x0e, 0x00, 0x14, 0x00, 0x00, 0x00, 0x08, 0x00, 0x0c, 0x00, 0x07, 0x00, 0x10, 0x00, 0x0e, 0x00, 0x00, 0x00, 0x00, 0x00, 0x00, 0x01, 0x30, 0x00, 0x00, 0x00, 0x24, 0x00, 0x00, 0x00, 0x10, 0x00, 0x00, 0x00, 0x0c, 0x00, 0x10, 0x00, 0x00, 0x00, 0x04, 0x00, 0x08, 0x00, 0x0f, 0x00, 0x0c, 0x00, 0x00, 0x00, 0x01, 0x00, 0x00, 0x00, 0x01, 0x00, 0x00, 0x00, 0x00, 0x00, 0x00, 0x01, 0x01, 0x00, 0x00, 0x00, 0x0a, 0x00, 0x00, 0x00, 0x03, 0x00, 0x00, 0x00, 0x00, 0x00, 0x00, 0x00, 0x08, 0x00, 0x00, 0x00, 0x01, 0x00, 0x00, 0x00, 0x0c, 0x00, 0x10, 0x00, 0x0b, 0x00, 0x00, 0x00, 0x0c, 0x00, 0x04, 0x00, 0x0c, 0x00, 0x00, 0x00, 0x03, 0x00, 0x00, 0x00, 0x00, 0x00, 0x00, 0x03, 0x01, 0x00, 0x00, 0x00, 0x80, 0xf4, 0xff, 0xff, 0x14, 0x00, 0x00, 0x00, 0x0b, 0x00, 0x00, 0x00, 0x34, 0x00, 0x00, 0x00, 0xe8, 0x00, 0x00, 0x00, 0x18, 0x00, 0x00, 0x00, 0x04, 0x00, 0x00, 0x00, 0x01, 0x00, 0x00, 0x00, 0x63, 0x00, 0x00, 0x00, 0x21, 0x00, 0x00, 0x00, 0x04, 0x00, 0x00, 0x00, 0x04, 0x00, 0x00, 0x00, 0xff, 0xff, 0xff, 0xff, 0x63, 0x00, 0x00, 0x00, 0x21, 0x00, 0x00, 0x00, 0x04, 0x00, 0x00, 0x00, 0xb2, 0x00, 0x00, 0x00, 0x73, 0x65, 0x71, 0x75, 0x65, 0x6e, 0x74, 0x69, 0x61, 0x6c, 0x5f, 0x33, 0x39, 0x2f, 0x63, 0x6f, 0x6e, 0x76, 0x32, 0x64, 0x5f, 0x37, 0x38, 0x2f, 0x52, 0x65, 0x6c, 0x75, 0x3b, 0x73, 0x65, 0x71, 0x75, 0x65, 0x6e, 0x74, 0x69, 0x61, 0x6c, 0x5f, 0x33, 0x39, 0x2f, 0x63, 0x6f, 0x6e, 0x76, 0x32, 0x64, 0x5f, 0x37, 0x38, 0x2f, 0x42, 0x69, 0x61, 0x73, 0x41, 0x64, 0x64, 0x3b, 0x73, 0x65, 0x71, 0x75, 0x65, 0x6e, 0x74, 0x69, 0x61, 0x6c, 0x5f, 0x33, 0x39, 0x2f, 0x63, 0x6f, 0x6e, 0x76, 0x32, 0x64, 0x5f, 0x37, 0x39, 0x2f, 0x43, 0x6f, 0x6e, 0x76, 0x32, 0x44, 0x3b, 0x73, 0x65, 0x71, 0x75, 0x65, 0x6e, 0x74, 0x69, 0x61, 0x6c, 0x5f, 0x33, 0x39, 0x2f, 0x63, 0x6f, 0x6e, 0x76, 0x32, 0x64, 0x5f, 0x37, 0x38, 0x2f, 0x43, 0x6f, 0x6e, 0x76, 0x32, 0x44, 0x3b, 0x73, 0x65, 0x71, 0x75, 0x65, 0x6e, 0x74, 0x69, 0x61, 0x6c, 0x5f, 0x33, 0x39, 0x2f, 0x63, 0x6f, 0x6e, 0x76, 0x32, 0x64, 0x5f, 0x37, 0x38, 0x2f, 0x42, 0x69, 0x61, 0x73, 0x41, 0x64, 0x64, 0x2f, 0x52, 0x65, 0x61, 0x64, 0x56, 0x61, 0x72, 0x69, 0x61, 0x62, 0x6c, 0x65, 0x4f, 0x70, 0x2f, 0x72, 0x65, 0x73, 0x6f, 0x75, 0x72, 0x63, 0x65, 0x00, 0x00, 0x10, 0xf5, 0xff, 0xff, 0x0a, 0xf6, 0xff, 0xff, 0x04, 0x00, 0x00, 0x00, 0x40, 0x02, 0x00, 0x00, 0x5d, 0xab, 0xf0, 0xbc, 0x33, 0x37, 0xb3, 0x3d, 0xb3, 0xc4, 0x67, 0x3c, 0x7c, 0xdd, 0x1e, 0x3e, 0xa2, 0xe8, 0xeb, 0x3d, 0x08, 0xa2, 0x28, 0x3e, 0x85, 0xaf, 0x39, 0x3e, 0x1c, 0xc2, 0x32, 0xbe, 0xca, 0x8e, 0x95, 0xbf, 0x31, 0x2d, 0x98, 0x3e, 0xbd, 0x54, 0x59, 0x3e, 0x59, 0xcb, 0x99, 0x3e, 0x94, 0x03, 0x82, 0xbe, 0xfe, 0x76, 0x5e, 0xbe, 0xaf, 0x13, 0x08, 0xbd, 0xcb, 0xd7, 0x42, 0xbd, 0x98, 0xa3, 0x0e, 0x3f, 0xd1, 0x43, 0xad, 0xbc, 0x4b, 0x25, 0x90, 0x3e, 0x34, 0x68, 0xad, 0xbd, 0xc7, 0xf2, 0xb1, 0x3d, 0x94, 0xbc, 0x02, 0xbe, 0xd8, 0x40, 0xed, 0x3d, 0xc3, 0xc7, 0xd2, 0x3d, 0x30, 0xe9, 0x19, 0x3e, 0x8d, 0xf9, 0x8b, 0xbe, 0x44, 0xfb, 0x22, 0xbe, 0x7b, 0xf3, 0x85, 0x3e, 0x21, 0x38, 0x95, 0xbe, 0xc0, 0xa3, 0xb2, 0x3d, 0x31, 0x44, 0xd2, 0x3d, 0x94, 0xb6, 0xe7, 0x3e, 0x15, 0xf1, 0x1d, 0x3e, 0x9a, 0x8d, 0x19, 0x3c, 0x89, 0xa6, 0x1b, 0x3f, 0x88, 0x70, 0x24, 0xbf, 0x53, 0xea, 0xde, 0xbe, 0x7b, 0x21, 0x2e, 0xbd, 0xd9, 0x33, 0x2d, 0x3d, 0x3f, 0x4d, 0x1e, 0x3f, 0xc3, 0xa4, 0xca, 0x3e, 0x22, 0x19, 0x87, 0x3e, 0x85, 0xdb, 0x90, 0xbc, 0x05, 0xba, 0x9c, 0x3e, 0x46, 0x50, 0xd5, 0x3d, 0x81, 0x78, 0xc5, 0x3e, 0x46, 0xf8, 0xb1, 0xbe, 0x4a, 0x02, 0xe3, 0xbc, 0x3a, 0x97, 0xaf, 0xbe, 0x88, 0xa2, 0xd7, 0xbe, 0xdd, 0xdb, 0x62, 0x3e, 0xbd, 0x13, 0x2e, 0xbf, 0x8e, 0x62, 0xf4, 0x3e, 0x46, 0xc6, 0xae, 0xbe, 0x66, 0xbe, 0x99, 0x3d, 0x25, 0xaa, 0xc3, 0xbe, 0xd4, 0x2e, 0x98, 0xbe, 0x18, 0xc3, 0x29, 0xbf, 0xcd, 0xac, 0x96, 0xbd, 0x1c, 0xf3, 0xa8, 0x3e, 0x35, 0x5c, 0x63, 0x3e, 0x94, 0x34, 0x44, 0x3f, 0xad, 0x12, 0xf2, 0xbc, 0xa6, 0x9c, 0xc3, 0xbe, 0x8c, 0x77, 0xbc, 0xbd, 0xb3, 0x74, 0xd1, 0xbe, 0xfa, 0x4b, 0x26, 0x3e, 0x7c, 0x05, 0xd2, 0x3c, 0x66, 0xae, 0x38, 0xbd, 0x35, 0x39, 0x0f, 0xbf, 0xf8, 0x50, 0x04, 0x3e, 0xe0, 0x55, 0xa9, 0x3c, 0x0c, 0x6a, 0x06, 0x3d, 0xa0, 0xde, 0x34, 0x3e, 0x68, 0xc4, 0x5c, 0x3d, 0x52, 0xf6, 0x95, 0x3e, 0x4c, 0x79, 0x42, 0x3d, 0x33, 0xfe, 0x24, 0xbd, 0xdd, 0xe0, 0xa1, 0xbe, 0x24, 0xe9, 0x97, 0xbe, 0x68, 0xda, 0x7a, 0xbe, 0x82, 0xfa, 0x32, 0x3e, 0xbf, 0x5e, 0xb6, 0xbd, 0xe0, 0x92, 0x31, 0x3e, 0x83, 0x6e, 0x14, 0xbe, 0x5a, 0x7d, 0x7c, 0xbe, 0x36, 0xf0, 0x21, 0xbe, 0x64, 0x7d, 0xe1, 0x3c, 0xa3, 0x8d, 0x06, 0x3e, 0xca, 0xee, 0x31, 0xbf, 0x8a, 0x58, 0x57, 0x3c, 0xec, 0x10, 0x4c, 0xbf, 0xde, 0x2e, 0xd7, 0xbe, 0xab, 0xde, 0x8b, 0xbe, 0x97, 0x2f, 0xc3, 0x3d, 0x38, 0xbc, 0xbc, 0xbd, 0x46, 0xa1, 0x45, 0xbe, 0xb8, 0x20, 0x17, 0xbe, 0xb6, 0xbc, 0xb3, 0xbe, 0x61, 0x42, 0x92, 0xbc, 0x28, 0x75, 0x83, 0xbf, 0xb1, 0x9b, 0xb5, 0x3c, 0x9a, 0xa8, 0xff, 0x3d, 0x78, 0x73, 0xdb, 0x3e, 0x26, 0xa2, 0x31, 0xbe, 0x7f, 0xa3, 0x20, 0x3f, 0xb1, 0xd2, 0x93, 0x3e, 0xa4, 0x59, 0x57, 0x3e, 0x5c, 0x0f, 0x50, 0x3e, 0x67, 0x25, 0x60, 0xbe, 0x31, 0x8a, 0x69, 0xbc, 0x75, 0xc4, 0x3a, 0x3f, 0xe0, 0xaf, 0x57, 0x3a, 0xa3, 0xe6, 0x20, 0x3e, 0x16, 0x69, 0x06, 0xbe, 0xaa, 0xa7, 0xc3, 0x3d, 0x3c, 0x28, 0x39, 0xbd, 0xd2, 0x5f, 0x74, 0x3e, 0x61, 0x9d, 0x25, 0x3e, 0xa6, 0xc4, 0x7d, 0xbe, 0x67, 0x4f, 0xf9, 0x3e, 0x78, 0x3c, 0x47, 0xbe, 0xf9, 0x12, 0xcf, 0xbb, 0x1d, 0xb3, 0x12, 0xbe, 0xe2, 0x82, 0x80, 0xbe, 0xef, 0xd5, 0x00, 0xbf, 0xeb, 0x6f, 0xb3, 0xbd, 0x1c, 0x05, 0x37, 0x3f, 0xcd, 0xda, 0x3e, 0x3e, 0xd8, 0xb6, 0x82, 0x3d, 0x07, 0x66, 0x70, 0x3d, 0x06, 0xe4, 0x52, 0xbb, 0xc2, 0x80, 0x24, 0x3f, 0x45, 0xf8, 0xa8, 0x3d, 0x14, 0x4a, 0x90, 0xbc, 0xba, 0x5b, 0xfd, 0xbd, 0xac, 0x16, 0x07, 0x3e, 0xbb, 0x72, 0x3b, 0xbf, 0xbe, 0x1b, 0xca, 0x3d, 0x79, 0x48, 0x97, 0x3d, 0x87, 0x47, 0x99, 0x3e, 0x4e, 0xd7, 0x80, 0x3d, 0x00, 0x2e, 0xf3, 0x3c, 0x17, 0x7a, 0x92, 0xbd, 0x32, 0xf8, 0xff, 0xff, 0x10, 0x00, 0x00, 0x00, 0x0a, 0x00, 0x00, 0x00, 0x1c, 0x00, 0x00, 0x00, 0x3c, 0x00, 0x00, 0x00, 0x04, 0x00, 0x00, 0x00, 0x04, 0x00, 0x00, 0x00, 0x03, 0x00, 0x00, 0x00, 0x03, 0x00, 0x00, 0x00, 0x04, 0x00, 0x00, 0x00, 0x1e, 0x00, 0x00, 0x00, 0x73, 0x65, 0x71, 0x75, 0x65, 0x6e, 0x74, 0x69, 0x61, 0x6c, 0x5f, 0x33, 0x39, 0x2f, 0x63, 0x6f, 0x6e, 0x76, 0x32, 0x64, 0x5f, 0x37, 0x39, 0x2f, 0x43, 0x6f, 0x6e, 0x76, 0x32, 0x44, 0x00, 0x00, 0xac, 0xf7, 0xff, 0xff, 0xa6, 0xf8, 0xff, 0xff, 0x04, 0x00, 0x00, 0x00, 0x90, 0x00, 0x00, 0x00, 0x06, 0xe5, 0xb6, 0x3e, 0x97, 0x3f, 0x3d, 0xbe, 0x5a, 0xec, 0x63, 0x3e, 0x7b, 0x58, 0x84, 0xbe, 0xd2, 0x24, 0x87, 0xbe, 0x35, 0x02, 0x1f, 0x3e, 0x6a, 0x66, 0x05, 0x3f, 0xc3, 0xec, 0xa1, 0xbe, 0x84, 0x9b, 0x95, 0xbe, 0xeb, 0xa5, 0x1d, 0xbf, 0x61, 0x3d, 0xaa, 0xbe, 0x60, 0x91, 0x84, 0xbc, 0x02, 0x46, 0x0c, 0x3e, 0x9a, 0x09, 0xc9, 0xba, 0x13, 0xe0, 0x50, 0xbf, 0x79, 0x9f, 0x45, 0xbd, 0xd8, 0xa8, 0x86, 0xbc, 0x42, 0xfd, 0x48, 0x3e, 0x96, 0x99, 0x8e, 0x3e, 0xe3, 0x6d, 0x13, 0x3e, 0x80, 0xdb, 0xb9, 0x3e, 0xda, 0x51, 0xc6, 0xbd, 0x39, 0xef, 0x18, 0x3e, 0x0a, 0x77, 0x82, 0xbd, 0x3e, 0x71, 0x82, 0x3e, 0x4b, 0x41, 0xf0, 0x3e, 0xea, 0x08, 0xa4, 0x3d, 0x36, 0x4c, 0x0c, 0xbf, 0x5d, 0xaf, 0xb6, 0xbd, 0xc8, 0xc2, 0x06, 0xbf, 0xd0, 0x3d, 0x89, 0x3d, 0x9e, 0xb0, 0xbb, 0xbe, 0xe7, 0x94, 0x74, 0x3e, 0x1b, 0x84, 0xe3, 0x3e, 0xa0, 0xbd, 0xcd, 0xbe, 0xeb, 0x9d, 0x05, 0xbf, 0x1e, 0xf9, 0xff, 0xff, 0x10, 0x00, 0x00, 0x00, 0x09, 0x00, 0x00, 0x00, 0x1c, 0x00, 0x00, 0x00, 0x3c, 0x00, 0x00, 0x00, 0x04, 0x00, 0x00, 0x00, 0x04, 0x00, 0x00, 0x00, 0x03, 0x00, 0x00, 0x00, 0x03, 0x00, 0x00, 0x00, 0x01, 0x00, 0x00, 0x00, 0x1e, 0x00, 0x00, 0x00, 0x73, 0x65, 0x71, 0x75, 0x65, 0x6e, 0x74, 0x69, 0x61, 0x6c, 0x5f, 0x33, 0x39, 0x2f, 0x63, 0x6f, 0x6e, 0x76, 0x32, 0x64, 0x5f, 0x37, 0x38, 0x2f, 0x43, 0x6f, 0x6e, 0x76, 0x32, 0x44, 0x00, 0x00, 0x98, 0xf8, 0xff, 0xff, 0x92, 0xf9, 0xff, 0xff, 0x04, 0x00, 0x00, 0x00, 0xc0, 0x00, 0x00, 0x00, 0xdd, 0xda, 0x1d, 0x3f, 0x7e, 0x19, 0xa7, 0x3e, 0x94, 0xfc, 0x8c, 0xbe, 0x5d, 0x22, 0xea, 0xbe, 0x1e, 0x86, 0xa3, 0xbe, 0xa4, 0x1a, 0x32, 0x3f, 0x3b, 0xd7, 0x53, 0x3d, 0x56, 0x72, 0x93, 0x3e, 0x12, 0xb3, 0xca, 0xbd, 0x5a, 0x07, 0xe6, 0xbe, 0xa3, 0x4f, 0x60, 0x3e, 0xbf, 0xe6, 0xa8, 0xbf, 0x2c, 0x5f, 0x09, 0xbf, 0x93, 0x5e, 0x9a, 0xbf, 0xc7, 0x5f, 0xee, 0xbe, 0x60, 0x39, 0xf7, 0xbf, 0xb0, 0x31, 0xcf, 0x3d, 0xd4, 0x13, 0x43, 0x3e, 0x6b, 0xf2, 0x85, 0xbe, 0x7c, 0xa3, 0x86, 0xbe, 0x3f, 0xd8, 0x26, 0x3f, 0x21, 0x5b, 0x2e, 0xbe, 0x0c, 0x01, 0x8a, 0xbe, 0xdb, 0x83, 0x8b, 0x3e, 0xee, 0x67, 0x16, 0x3f, 0x80, 0x86, 0x44, 0xbc, 0x8f, 0x2b, 0x55, 0x3f, 0x4b, 0x7d, 0x91, 0xbd, 0x84, 0x17, 0x17, 0xbe, 0xc2, 0xf7, 0x5b, 0xbf, 0x5d, 0xbf, 0x0b, 0x3e, 0x87, 0xc6, 0x50, 0xbe, 0xee, 0x57, 0x24, 0xbf, 0x81, 0x4b, 0xcd, 0xbe, 0xdc, 0x09, 0x1b, 0xbe, 0x91, 0xb1, 0xe4, 0x3e, 0x83, 0x5b, 0xfb, 0xbe, 0x77, 0xb7, 0x41, 0xbf, 0xec, 0x71, 0x10, 0x3f, 0xe0, 0xd2, 0x67, 0xbe, 0xd8, 0xee, 0xe8, 0x3d, 0xc0, 0xfe, 0xcc, 0xbe, 0xee, 0x53, 0x1b, 0xbe, 0x75, 0xfe, 0xa8, 0x3e, 0xeb, 0x05, 0x8a, 0x3e, 0xa2, 0x23, 0x9a, 0x3f, 0x44, 0x1d, 0x56, 0x3f, 0x45, 0x93, 0x83, 0x3f, 0x3a, 0xfa, 0xff, 0xff, 0x10, 0x00, 0x00, 0x00, 0x08, 0x00, 0x00, 0x00, 0x14, 0x00, 0x00, 0x00, 0x34, 0x00, 0x00, 0x00, 0x02, 0x00, 0x00, 0x00, 0x03, 0x00, 0x00, 0x00, 0x10, 0x00, 0x00, 0x00, 0x1d, 0x00, 0x00, 0x00, 0x73, 0x65, 0x71, 0x75, 0x65, 0x6e, 0x74, 0x69, 0x61, 0x6c, 0x5f, 0x33, 0x39, 0x2f, 0x64, 0x65, 0x6e, 0x73, 0x65, 0x5f, 0x37, 0x39, 0x2f, 0x4d, 0x61, 0x74, 0x4d, 0x75, 0x6c, 0x00, 0x00, 0x00, 0xac, 0xf9, 0xff, 0xff, 0xa6, 0xfa, 0xff, 0xff, 0x04, 0x00, 0x00, 0x00, 0x00, 0x03, 0x00, 0x00, 0xeb, 0x88, 0x1e, 0x3d, 0x56, 0x04, 0x86, 0x3b, 0xba, 0x6e, 0x1c, 0x3f, 0x0c, 0x07, 0x09, 0x3f, 0x72, 0x65, 0xc5, 0x3e, 0xf5, 0x82, 0x20, 0x3f, 0x14, 0x11, 0x14, 0xbe, 0x3e, 0x5d, 0xc6, 0xbe, 0xa4, 0x4c, 0x1e, 0xbe, 0x35, 0x6d, 0x16, 0x3f, 0x0f, 0x56, 0x2c, 0xbf, 0xd1, 0x5b, 0xec, 0x3d, 0xe1, 0xed, 0xfe, 0xbc, 0xea, 0x5b, 0xc1, 0xbe, 0x1c, 0x27, 0x1c, 0x3f, 0x41, 0x81, 0xba, 0x3e, 0x11, 0x56, 0xa9, 0x3e, 0xc1, 0xdf, 0x11, 0x3f, 0x01, 0xf7, 0xa9, 0x3e, 0x75, 0xc4, 0x86, 0xbe, 0x46, 0x2b, 0xa4, 0x3e, 0x29, 0xa9, 0x61, 0x3e, 0x84, 0x45, 0x23, 0x3e, 0xd3, 0x3f, 0xc4, 0x3e, 0xb3, 0xaf, 0xd8, 0xbe, 0x54, 0xea, 0x86, 0x3e, 0x60, 0x7c, 0x0b, 0x3c, 0x04, 0x98, 0x06, 0xbe, 0x90, 0x99, 0xf3, 0xbd, 0x27, 0x2b, 0xc6, 0xbe, 0xb8, 0x11, 0xbc, 0xbd, 0x98, 0x30, 0x5e, 0xbe, 0x94, 0x4d, 0x0b, 0x3e, 0xe0, 0x20, 0x6f, 0x3d, 0x72, 0xa8, 0xb3, 0xbe, 0xa6, 0xb5, 0x10, 0xbe, 0x04, 0x6d, 0x80, 0xbe, 0xb7, 0x14, 0x8c, 0x3e, 0x36, 0xd5, 0xc6, 0xbc, 0x6a, 0x1f, 0x28, 0xbf, 0x41, 0x55, 0xdc, 0x3e, 0x23, 0x34, 0xb6, 0xbe, 0x9b, 0x25, 0xeb, 0x3e, 0xf5, 0xe2, 0x28, 0xbf, 0xf7, 0x67, 0x8a, 0x3d, 0x9a, 0xd0, 0x2a, 0x3d, 0xb5, 0x50, 0x86, 0x3e, 0xaa, 0xab, 0x06, 0xbf, 0xd5, 0xb4, 0x1e, 0x3e, 0xb2, 0xf6, 0x69, 0x3e, 0x21, 0xe8, 0x3e, 0x3e, 0x9c, 0xec, 0x96, 0x3e, 0x93, 0x19, 0x14, 0x3e, 0xa0, 0x6e, 0xa8, 0xbd, 0x19, 0xad, 0x9c, 0x3f, 0x15, 0xde, 0x11, 0xbf, 0xa7, 0x6b, 0x06, 0xbe, 0xbf, 0x35, 0x92, 0x3e, 0x4f, 0xc6, 0x3d, 0x3f, 0x7d, 0xae, 0x84, 0x3e, 0x40, 0xf1, 0xac, 0x3d, 0x0e, 0x54, 0x0b, 0xbe, 0x54, 0x7d, 0xfb, 0xbd, 0xb6, 0xa1, 0xe4, 0x3e, 0xef, 0x33, 0xc3, 0x3c, 0xda, 0x59, 0x12, 0x3f, 0xfa, 0xae, 0x23, 0xbf, 0x52, 0xb8, 0xc9, 0xbe, 0x1d, 0x0b, 0x59, 0x3d, 0xec, 0xfc, 0x1d, 0x3f, 0x4c, 0xea, 0x74, 0xbf, 0x96, 0xab, 0xf7, 0x3e, 0xf4, 0x01, 0xb6, 0x3e, 0x38, 0x03, 0xba, 0x3e, 0xf9, 0xfb, 0x81, 0x3e, 0x9e, 0x32, 0xbf, 0x3d, 0xdf, 0x23, 0xbb, 0x3e, 0xbf, 0x43, 0xe3, 0xbe, 0x79, 0x31, 0x4a, 0xbe, 0xfb, 0x56, 0x54, 0x3f, 0x19, 0x7c, 0x95, 0xbd, 0x11, 0x71, 0x94, 0xbe, 0x1e, 0x3a, 0x43, 0xbe, 0x63, 0x5c, 0x93, 0xbe, 0x1e, 0xfe, 0x41, 0xbe, 0x5b, 0x15, 0x5b, 0xbe, 0x88, 0x84, 0x7d, 0xbe, 0xb8, 0x3e, 0xff, 0x3d, 0x89, 0x0c, 0xea, 0xbe, 0xc2, 0x8e, 0xcf, 0xbe, 0xad, 0x38, 0xb4, 0xbe, 0x85, 0xb5, 0x01, 0xbf, 0x36, 0xc5, 0x98, 0x3e, 0x21, 0x25, 0x6d, 0x3e, 0xdc, 0x8f, 0x93, 0xbd, 0x1f, 0x44, 0x85, 0x3e, 0x64, 0x89, 0xcf, 0xbe, 0x5b, 0x62, 0x55, 0x3d, 0x41, 0x36, 0x95, 0x3e, 0x44, 0xa9, 0x04, 0xbf, 0x56, 0x29, 0x91, 0x3e, 0x56, 0xdc, 0xfa, 0xbc, 0x3f, 0xa6, 0xe3, 0x3f, 0x15, 0xea, 0x75, 0xbf, 0xa9, 0x61, 0x51, 0x3e, 0x00, 0x17, 0x0e, 0x3e, 0xd8, 0x1c, 0x73, 0x3f, 0xe4, 0xcd, 0xcf, 0xbc, 0xc0, 0x22, 0xcb, 0xbe, 0x58, 0xed, 0xea, 0x3d, 0xb3, 0x84, 0xea, 0xbe, 0x44, 0xaf, 0x0a, 0x3e, 0xee, 0x4c, 0x01, 0xbe, 0xc1, 0x48, 0xb4, 0xbe, 0x44, 0x16, 0x79, 0x3e, 0xd4, 0x43, 0x96, 0x3e, 0x64, 0x7f, 0xba, 0xbd, 0x68, 0x79, 0x44, 0xbe, 0xce, 0x02, 0x4a, 0xbe, 0xb6, 0x4d, 0x22, 0xbe, 0xcb, 0xa6, 0x7d, 0x3e, 0x5f, 0x30, 0xba, 0x3e, 0x69, 0xcc, 0x25, 0x3f, 0xb9, 0xad, 0x0f, 0x3f, 0x56, 0x31, 0x56, 0xbe, 0x04, 0xb1, 0x1a, 0x3f, 0x91, 0xdb, 0xda, 0x3e, 0xc2, 0x1f, 0x16, 0xbf, 0x10, 0x39, 0xce, 0xbc, 0x99, 0x14, 0x85, 0xbe, 0x19, 0x20, 0x68, 0x3f, 0xfb, 0xf4, 0xef, 0x3e, 0x6e, 0xd2, 0xc4, 0xbe, 0x6f, 0xed, 0xad, 0xbe, 0x2c, 0x03, 0x38, 0xbf, 0x7f, 0x71, 0x1f, 0xbf, 0x79, 0xf1, 0x88, 0x3e, 0x26, 0x06, 0xa0, 0xbe, 0x66, 0x16, 0xb0, 0x3f, 0x46, 0x65, 0x81, 0x3e, 0xa8, 0xd3, 0xd9, 0x3e, 0x48, 0xcc, 0xae, 0xbe, 0x62, 0x0a, 0x56, 0x3f, 0x4c, 0xd8, 0xe6, 0xbc, 0x3b, 0xef, 0xdf, 0xbc, 0xe4, 0x81, 0xe6, 0x3e, 0x19, 0xd6, 0x12, 0xbf, 0x82, 0x86, 0xe8, 0xbd, 0x4b, 0x2e, 0xa7, 0x3e, 0xc9, 0xa7, 0xe4, 0x3c, 0x8a, 0xac, 0xd2, 0x3e, 0xfd, 0xe1, 0x0d, 0x3f, 0xc8, 0x74, 0x95, 0xbe, 0x3a, 0x10, 0x0d, 0x3e, 0xbd, 0xd8, 0x35, 0x3f, 0xbb, 0x66, 0xd5, 0xbe, 0x6d, 0xe1, 0xab, 0xbe, 0x8b, 0xa4, 0x90, 0xbc, 0x34, 0x7f, 0x7c, 0xbf, 0xc0, 0xab, 0x0b, 0xbf, 0x26, 0xbb, 0x2d, 0x3e, 0x29, 0xf7, 0x48, 0xbe, 0x11, 0x67, 0xc3, 0xbe, 0xa3, 0x4d, 0xe4, 0xbe, 0x55, 0xa8, 0xe1, 0x3e, 0x59, 0xc7, 0x88, 0xbe, 0xf0, 0x6f, 0xb1, 0x3b, 0xbe, 0xd3, 0xeb, 0xbe, 0xaf, 0x48, 0x86, 0xbe, 0x8a, 0x37, 0x97, 0x3e, 0x0d, 0xa5, 0xed, 0x3d, 0x1a, 0x05, 0x8c, 0xbf, 0xf3, 0x35, 0x8a, 0x3e, 0xdf, 0xb8, 0xe2, 0x3c, 0xf2, 0x7f, 0x6c, 0x3f, 0xe0, 0x56, 0x50, 0xbb, 0x43, 0x05, 0xc4, 0x3d, 0x98, 0x2b, 0x18, 0xbf, 0xa0, 0x31, 0x20, 0x3e, 0x37, 0xa1, 0x0b, 0xbf, 0x8e, 0x43, 0xd7, 0x3e, 0x5a, 0x27, 0x7f, 0xbe, 0x62, 0xce, 0x82, 0x3c, 0x16, 0x6b, 0x06, 0xbf, 0xf6, 0x74, 0x84, 0x3e, 0xcb, 0x8f, 0x6a, 0xbf, 0xc2, 0x36, 0x98, 0x3e, 0xe5, 0xe0, 0x0b, 0xbe, 0x3c, 0xc9, 0xbf, 0xbe, 0x93, 0x00, 0x28, 0xbf, 0x06, 0xbd, 0xa7, 0xbd, 0x02, 0x87, 0x3e, 0xbd, 0x8e, 0xfd, 0xff, 0xff, 0x10, 0x00, 0x00, 0x00, 0x07, 0x00, 0x00, 0x00, 0x14, 0x00, 0x00, 0x00, 0x34, 0x00, 0x00, 0x00, 0x02, 0x00, 0x00, 0x00, 0x10, 0x00, 0x00, 0x00, 0x0c, 0x00, 0x00, 0x00, 0x1d, 0x00, 0x00, 0x00, 0x73, 0x65, 0x71, 0x75, 0x65, 0x6e, 0x74, 0x69, 0x61, 0x6c, 0x5f, 0x33, 0x39, 0x2f, 0x64, 0x65, 0x6e, 0x73, 0x65, 0x5f, 0x37, 0x38, 0x2f, 0x4d, 0x61, 0x74, 0x4d, 0x75, 0x6c, 0x00, 0x00, 0x00, 0x00, 0xfd, 0xff, 0xff, 0xfa, 0xfd, 0xff, 0xff, 0x04, 0x00, 0x00, 0x00, 0x08, 0x00, 0x00, 0x00, 0xff, 0xff, 0xff, 0xff, 0x0c, 0x00, 0x00, 0x00, 0x00, 0x00, 0x0e, 0x00, 0x18, 0x00, 0x08, 0x00, 0x07, 0x00, 0x0c, 0x00, 0x10, 0x00, 0x14, 0x00, 0x0e, 0x00, 0x00, 0x00, 0x00, 0x00, 0x00, 0x02, 0x10, 0x00, 0x00, 0x00, 0x06, 0x00, 0x00, 0x00, 0x10, 0x00, 0x00, 0x00, 0x30, 0x00, 0x00, 0x00, 0x01, 0x00, 0x00, 0x00, 0x02, 0x00, 0x00, 0x00, 0x1e, 0x00, 0x00, 0x00, 0x73, 0x65, 0x71, 0x75, 0x65, 0x6e, 0x74, 0x69, 0x61, 0x6c, 0x5f, 0x33, 0x39, 0x2f, 0x66, 0x6c, 0x61, 0x74, 0x74, 0x65, 0x6e, 0x5f, 0x33, 0x39, 0x2f, 0x43, 0x6f, 0x6e, 0x73, 0x74, 0x00, 0x00, 0x6c, 0xfd, 0xff, 0xff, 0x66, 0xfe, 0xff, 0xff, 0x04, 0x00, 0x00, 0x00, 0x0c, 0x00, 0x00, 0x00, 0x2d, 0x92, 0xdb, 0xbe, 0x0e, 0xf3, 0x6a, 0xbe, 0x01, 0x69, 0xcf, 0x3e, 0x5a, 0xfe, 0xff, 0xff, 0x10, 0x00, 0x00, 0x00, 0x05, 0x00, 0x00, 0x00, 0x10, 0x00, 0x00, 0x00, 0x48, 0x00, 0x00, 0x00, 0x01, 0x00, 0x00, 0x00, 0x03, 0x00, 0x00, 0x00, 0x36, 0x00, 0x00, 0x00, 0x73, 0x65, 0x71, 0x75, 0x65, 0x6e, 0x74, 0x69, 0x61, 0x6c, 0x5f, 0x33, 0x39, 0x2f, 0x64, 0x65, 0x6e, 0x73, 0x65, 0x5f, 0x37, 0x39, 0x2f, 0x42, 0x69, 0x61, 0x73, 0x41, 0x64, 0x64, 0x2f, 0x52, 0x65, 0x61, 0x64, 0x56, 0x61, 0x72, 0x69, 0x61, 0x62, 0x6c, 0x65, 0x4f, 0x70, 0x2f, 0x72, 0x65, 0x73, 0x6f, 0x75, 0x72, 0x63, 0x65, 0x00, 0x00, 0xe0, 0xfd, 0xff, 0xff, 0xda, 0xfe, 0xff, 0xff, 0x04, 0x00, 0x00, 0x00, 0x40, 0x00, 0x00, 0x00, 0xc0, 0x11, 0xf2, 0xbe, 0x27, 0x54, 0xd6, 0xbe, 0x00, 0x00, 0x00, 0x00, 0xe1, 0xa4, 0x0f, 0x3f, 0xb4, 0xd9, 0x76, 0xbe, 0x26, 0x4b, 0x06, 0xbf, 0x1e, 0xbd, 0xb2, 0x3e, 0x50, 0x19, 0x03, 0xbe, 0xe9, 0x3d, 0x1b, 0xbe, 0x00, 0x00, 0x00, 0x00, 0x05, 0xea, 0x94, 0xbe, 0xd8, 0x73, 0x00, 0x3f, 0x1a, 0xae, 0x04, 0x3f, 0x48, 0xbb, 0xd4, 0x3e, 0x06, 0xac, 0xfd, 0x3e, 0x7b, 0x9e, 0x1f, 0x3f, 0x02, 0xff, 0xff, 0xff, 0x10, 0x00, 0x00, 0x00, 0x04, 0x00, 0x00, 0x00, 0x10, 0x00, 0x00, 0x00, 0x48, 0x00, 0x00, 0x00, 0x01, 0x00, 0x00, 0x00, 0x10, 0x00, 0x00, 0x00, 0x36, 0x00, 0x00, 0x00, 0x73, 0x65, 0x71, 0x75, 0x65, 0x6e, 0x74, 0x69, 0x61, 0x6c, 0x5f, 0x33, 0x39, 0x2f, 0x64, 0x65, 0x6e, 0x73, 0x65, 0x5f, 0x37, 0x38, 0x2f, 0x42, 0x69, 0x61, 0x73, 0x41, 0x64, 0x64, 0x2f, 0x52, 0x65, 0x61, 0x64, 0x56, 0x61, 0x72, 0x69, 0x61, 0x62, 0x6c, 0x65, 0x4f, 0x70, 0x2f, 0x72, 0x65, 0x73, 0x6f, 0x75, 0x72, 0x63, 0x65, 0x00, 0x00, 0x88, 0xfe, 0xff, 0xff, 0x82, 0xff, 0xff, 0xff, 0x04, 0x00, 0x00, 0x00, 0x10, 0x00, 0x00, 0x00, 0x6b, 0x01, 0xf6, 0x3d, 0x5a, 0x97, 0x15, 0xbf, 0x2a, 0x69, 0xf3, 0xbe, 0x63, 0x6d, 0x11, 0xbf, 0x7a, 0xff, 0xff, 0xff, 0x10, 0x00, 0x00, 0x00, 0x03, 0x00, 0x00, 0x00, 0x10, 0x00, 0x00, 0x00, 0x4c, 0x00, 0x00, 0x00, 0x01, 0x00, 0x00, 0x00, 0x04, 0x00, 0x00, 0x00, 0x37, 0x00, 0x00, 0x00, 0x73, 0x65, 0x71, 0x75, 0x65, 0x6e, 0x74, 0x69, 0x61, 0x6c, 0x5f, 0x33, 0x39, 0x2f, 0x63, 0x6f, 0x6e, 0x76, 0x32, 0x64, 0x5f, 0x37, 0x39, 0x2f, 0x42, 0x69, 0x61, 0x73, 0x41, 0x64, 0x64, 0x2f, 0x52, 0x65, 0x61, 0x64, 0x56, 0x61, 0x72, 0x69, 0x61, 0x62, 0x6c, 0x65, 0x4f, 0x70, 0x2f, 0x72, 0x65, 0x73, 0x6f, 0x75, 0x72, 0x63, 0x65, 0x00, 0x04, 0x00, 0x06, 0x00, 0x04, 0x00, 0x00, 0x00, 0x00, 0x00, 0x06, 0x00, 0x08, 0x00, 0x04, 0x00, 0x06, 0x00, 0x00, 0x00, 0x04, 0x00, 0x00, 0x00, 0x10, 0x00, 0x00, 0x00, 0x4d, 0x94, 0xa8, 0xbe, 0xc6, 0x3c, 0xed, 0xbd, 0x19, 0x71, 0xe5, 0xbe, 0x7d, 0x21, 0x72, 0xbd, 0x00, 0x00, 0x0e, 0x00, 0x14, 0x00, 0x04, 0x00, 0x00, 0x00, 0x08, 0x00, 0x0c, 0x00, 0x10, 0x00, 0x0e, 0x00, 0x00, 0x00, 0x10, 0x00, 0x00, 0x00, 0x02, 0x00, 0x00, 0x00, 0x10, 0x00, 0x00, 0x00, 0x48, 0x00, 0x00, 0x00, 0x01, 0x00, 0x00, 0x00, 0x04, 0x00, 0x00, 0x00, 0x37, 0x00, 0x00, 0x00, 0x73, 0x65, 0x71, 0x75, 0x65, 0x6e, 0x74, 0x69, 0x61, 0x6c, 0x5f, 0x33, 0x39, 0x2f, 0x63, 0x6f, 0x6e, 0x76, 0x32, 0x64, 0x5f, 0x37, 0x38, 0x2f, 0x42, 0x69, 0x61, 0x73, 0x41, 0x64, 0x64, 0x2f, 0x52, 0x65, 0x61, 0x64, 0x56, 0x61, 0x72, 0x69, 0x61, 0x62, 0x6c, 0x65, 0x4f, 0x70, 0x2f, 0x72, 0x65, 0x73, 0x6f, 0x75, 0x72, 0x63, 0x65, 0x00, 0x94, 0xff, 0xff, 0xff, 0x14, 0x00, 0x18, 0x00, 0x04, 0x00, 0x00, 0x00, 0x08, 0x00, 0x0c, 0x00, 0x10, 0x00, 0x00, 0x00, 0x00, 0x00, 0x14, 0x00, 0x14, 0x00, 0x00, 0x00, 0x14, 0x00, 0x00, 0x00, 0x01, 0x00, 0x00, 0x00, 0x34, 0x00, 0x00, 0x00, 0x40, 0x00, 0x00, 0x00, 0x18, 0x00, 0x00, 0x00, 0x04, 0x00, 0x00, 0x00, 0x01, 0x00, 0x00, 0x00, 0x63, 0x00, 0x00, 0x00, 0x21, 0x00, 0x00, 0x00, 0x01, 0x00, 0x00, 0x00, 0x04, 0x00, 0x00, 0x00, 0xff, 0xff, 0xff, 0xff, 0x63, 0x00, 0x00, 0x00, 0x21, 0x00, 0x00, 0x00, 0x01, 0x00, 0x00, 0x00, 0x08, 0x00, 0x00, 0x00, 0x69, 0x6e, 0x70, 0x75, 0x74, 0x5f, 0x34, 0x30, 0x00, 0x00, 0x00, 0x00, 0xfc, 0xff, 0xff, 0xff, 0x04, 0x00, 0x04, 0x00, 0x04, 0x00, 0x00, 0x00};

const unsigned int g_model_len = 5016;